01
F5
08
01
FB
F9
00
FE
F9
FB
05
03
FD
06
02
FC
02
F2
FF
06
FC
FC
06
FF
FF
FD
03
01
04
02
0C
FE
FF
F1
00
0D
FF
FC
FC
03
01
02
FD
00
FF
01
0A
01
04
02
FF
0D
F9
FE
FD
FC
00
07
FC
04
FB
FE
05
03
02
07
02
04
00
FF
F9
FA
FF
02
01
02
FE
01
02
FE
03
0E
FB
F6
FC
03
FD
00
01
02
03
FE
FE
00
F4
F8
FB
08
02
F1
FE
07
FE
03
FD
FF
FB
FD
03
F7
FD
01
FE
F2
06
F8
FC
00
08
FE
FB
00
01
06
04
02
06
FA
FE
FF
F4
FE
10
FF
F8
FA
F2
04
0A
0F
0A
FB
F4
01
FD
FE
FC
FD
0F
01
FF
FA
01
FD
00
08
02
05
FE
FA
FA
FF
FC
FE
1D
FB
04
01
01
FF
FD
01
01
FA
FC
01
0B
FD
0A
F9
00
01
FD
05
EE
07
01
F8
F9
09
06
FF
FC
01
FE
FC
F0
FE
00
FF
00
06
00
01
F0
00
FB
FA
FC
02
14
FB
F8
FD
FE
05
10
06
FF
FB
F7
01
03
FA
00
02
10
08
F9
FF
F8
FC
05
06
FC
FB
F4
FF
F7
FD
FB
02
F1
FE
FB
F9
FA
09
16
FA
FE
01
09
FB
FE
04
02
F6
03
F6
F7
FF
01
FC
03
04
01
00
06
00
F7
02
00
07
0A
FC
FB
FA
06
01
01
F6
05
01
02
FE
FC
00
00
03
FF
03
03
F3
FD
FD
FF
F9
F7
F8
07
F8
03
FE
00
FE
00
FF
00
00
00
00
FF
00
00
00
02
00
FF
00
00
F8
00
07
FB
16
11
F3
12
F8
FE
08
F5
0F
08
F0
18
06
F2
FE
0A
04
F7
00
F9
FD
09
04
FC
FB
FF
F9
08
F2
0E
01
F4
02
FE
03
09
F4
FD
03
FA
08
FE
06
F6
FE
02
12
01
02
FB
FF
02
06
08
F1
FF
08
FC
FB
01
FC
F9
0B
