01
02
FF
04
02
03
FB
FE
FE
FD
FA
0B
FC
FC
00
FB
02
00
00
F5
F2
F1
02
07
0E
08
F2
FF
FE
FF
FD
01
02
02
02
F6
07
03
08
FF
00
FF
02
FB
02
06
F4
FC
FC
0A
FE
14
10
F1
03
0A
FF
01
06
0D
0D
04
F6
F1
F8
FE
FD
FE
F9
FC
FB
08
FE
F6
FC
03
FB
FC
FF
F9
00
FC
FE
FC
10
0F
1D
00
F0
F8
F9
FB
F7
FB
03
F9
FC
FC
FE
FF
03
07
00
FF
01
FB
01
FE
FD
FF
F9
FF
FA
F3
00
06
FC
FD
F9
FD
FE
08
F8
FF
04
FD
00
FE
F8
FA
01
06
FD
FE
FF
03
FC
FA
00
03
FE
FA
FA
01
05
FF
05
FC
09
FC
01
FD
F9
FF
01
00
FF
01
FD
FB
F2
01
01
EE
00
10
05
16
03
01
FF
FB
FD
02
07
02
02
FF
00
04
FD
FF
07
06
06
06
FA
04
F6
F9
05
03
FD
FC
01
03
FB
01
0A
00
FD
01
00
FF
FC
FE
01
05
F7
03
01
00
04
02
FE
FD
06
0F
08
01
F8
01
FB
FB
01
00
01
F8
FD
04
FF
FB
FE
FE
03
04
0A
02
01
F9
F0
F7
F4
09
06
02
07
06
02
01
FE
01
00
F7
02
FB
05
FA
09
00
01
FF
FB
00
FE
F8
02
0C
0A
05
02
F4
FD
06
F4
FE
FC
06
FB
03
F7
FE
F7
FC
03
FC
FE
01
03
FE
F8
01
FA
01
FA
01
FF
FA
FA
FD
04
02
00
FE
00
FE
00
FF
00
00
00
00
FF
00
00
00
02
00
FF
00
00
FB
12
F5
18
0A
F9
FC
08
F4
09
FA
F6
01
02
FF
F8
16
F8
0F
06
04
FD
FB
F2
02
F4
08
FE
02
06
08
00
11
FE
08
F2
F7
09
FF
0E
FE
FD
FE
02
FB
08
FC
07
F3
08
F0
FE
00
04
F9
01
03
03
06
12
FF
F1
FB
01
FC
F9
0B
